unsigned char crop_yield_model_tflite[] = {
  0x1c, 0x00, 0x00, 0x00, 0x54, 0x46, 0x4c, 0x33, 0x14, 0x00, 0x20, 0x00,
  0x1c, 0x00, 0x18, 0x00, 0x14, 0x00, 0x10, 0x00, 0x0c, 0x00, 0x00, 0x00,
  0x08, 0x00, 0x04, 0x00, 0x14, 0x00, 0x00, 0x00, 0x1c, 0x00, 0x00, 0x00,
  0x98, 0x00, 0x00, 0x00, 0xf0, 0x00, 0x00, 0x00, 0xbc, 0x14, 0x00, 0x00,
  0xcc, 0x14, 0x00, 0x00, 0x20, 0x1b, 0x00, 0x00, 0x03, 0x00, 0x00, 0x00,
  0x01, 0x00, 0x00, 0x00, 0x10, 0x00, 0x00, 0x00, 0x00, 0x00, 0x0a, 0x00,
  0x10, 0x00, 0x0c, 0x00, 0x08, 0x00, 0x04, 0x00, 0x0a, 0x00, 0x00, 0x00,
  0x0c, 0x00, 0x00, 0x00, 0x1c, 0x00, 0x00, 0x00, 0x3c, 0x00, 0x00, 0x00,
  0x0f, 0x00, 0x00, 0x00, 0x73, 0x65, 0x72, 0x76, 0x69, 0x6e, 0x67, 0x5f,
  0x64, 0x65, 0x66, 0x61, 0x75, 0x6c, 0x74, 0x00, 0x01, 0x00, 0x00, 0x00,
  0x04, 0x00, 0x00, 0x00, 0x90, 0xff, 0xff, 0xff, 0x0c, 0x00, 0x00, 0x00,
  0x04, 0x00, 0x00, 0x00, 0x08, 0x00, 0x00, 0x00, 0x6f, 0x75, 0x74, 0x70,
  0x75, 0x74, 0x5f, 0x30, 0x00, 0x00, 0x00, 0x00, 0x01, 0x00, 0x00, 0x00,
  0x04, 0x00, 0x00, 0x00, 0xf2, 0xeb, 0xff, 0xff, 0x04, 0x00, 0x00, 0x00,
  0x0d, 0x00, 0x00, 0x00, 0x69, 0x6e, 0x70, 0x75, 0x74, 0x5f, 0x6c, 0x61,
  0x79, 0x65, 0x72, 0x5f, 0x31, 0x00, 0x00, 0x00, 0x02, 0x00, 0x00, 0x00,
  0x34, 0x00, 0x00, 0x00, 0x04, 0x00, 0x00, 0x00, 0xdc, 0xff, 0xff, 0xff,
  0x0f, 0x00, 0x00, 0x00, 0x04, 0x00, 0x00, 0x00, 0x13, 0x00, 0x00, 0x00,
  0x43, 0x4f, 0x4e, 0x56, 0x45, 0x52, 0x53, 0x49, 0x4f, 0x4e, 0x5f, 0x4d,
  0x45, 0x54, 0x41, 0x44, 0x41, 0x54, 0x41, 0x00, 0x08, 0x00, 0x0c, 0x00,
  0x08, 0x00, 0x04, 0x00, 0x08, 0x00, 0x00, 0x00, 0x0e, 0x00, 0x00, 0x00,
  0x04, 0x00, 0x00, 0x00, 0x13, 0x00, 0x00, 0x00, 0x6d, 0x69, 0x6e, 0x5f,
  0x72, 0x75, 0x6e, 0x74, 0x69, 0x6d, 0x65, 0x5f, 0x76, 0x65, 0x72, 0x73,
  0x69, 0x6f, 0x6e, 0x00, 0x10, 0x00, 0x00, 0x00, 0xc8, 0x13, 0x00, 0x00,
  0xc0, 0x13, 0x00, 0x00, 0x90, 0x13, 0x00, 0x00, 0x38, 0x13, 0x00, 0x00,
  0x24, 0x13, 0x00, 0x00, 0xf4, 0x12, 0x00, 0x00, 0xe4, 0x10, 0x00, 0x00,
  0xd4, 0x08, 0x00, 0x00, 0x44, 0x01, 0x00, 0x00, 0xb4, 0x00, 0x00, 0x00,
  0xac, 0x00, 0x00, 0x00, 0xa4, 0x00, 0x00, 0x00, 0x9c, 0x00, 0x00, 0x00,
  0x94, 0x00, 0x00, 0x00, 0x74, 0x00, 0x00, 0x00, 0x04, 0x00, 0x00, 0x00,
  0xae, 0xec, 0xff, 0xff, 0x04, 0x00, 0x00, 0x00, 0x60, 0x00, 0x00, 0x00,
  0x10, 0x00, 0x00, 0x00, 0x00, 0x00, 0x00, 0x00, 0x08, 0x00, 0x0e, 0x00,
  0x08, 0x00, 0x04, 0x00, 0x08, 0x00, 0x00, 0x00, 0x10, 0x00, 0x00, 0x00,
  0x24, 0x00, 0x00, 0x00, 0x00, 0x00, 0x06, 0x00, 0x08, 0x00, 0x04, 0x00,
  0x06, 0x00, 0x00, 0x00, 0x04, 0x00, 0x00, 0x00, 0x00, 0x00, 0x00, 0x00,
  0x0c, 0x00, 0x18, 0x00, 0x14, 0x00, 0x10, 0x00, 0x0c, 0x00, 0x04, 0x00,
  0x0c, 0x00, 0x00, 0x00, 0xc7, 0x31, 0xbd, 0x59, 0x7f, 0x6c, 0xc0, 0x3a,
  0x02, 0x00, 0x00, 0x00, 0x02, 0x00, 0x00, 0x00, 0x04, 0x00, 0x00, 0x00,
  0x06, 0x00, 0x00, 0x00, 0x32, 0x2e, 0x32, 0x30, 0x2e, 0x30, 0x00, 0x00,
  0x1a, 0xed, 0xff, 0xff, 0x04, 0x00, 0x00, 0x00, 0x10, 0x00, 0x00, 0x00,
  0x31, 0x2e, 0x35, 0x2e, 0x30, 0x00, 0x00, 0x00, 0x00, 0x00, 0x00, 0x00,
  0x00, 0x00, 0x00, 0x00, 0xc8, 0xe6, 0xff, 0xff, 0xcc, 0xe6, 0xff, 0xff,
  0xd0, 0xe6, 0xff, 0xff, 0xd4, 0xe6, 0xff, 0xff, 0x46, 0xed, 0xff, 0xff,
  0x04, 0x00, 0x00, 0x00, 0x80, 0x00, 0x00, 0x00, 0x5c, 0xc6, 0x46, 0x3f,
  0x89, 0x64, 0xb3, 0xbe, 0xfc, 0x17, 0xee, 0xba, 0xbf, 0xec, 0xe7, 0x3e,
  0xb0, 0xc7, 0x68, 0xbd, 0x4a, 0x18, 0x21, 0xbe, 0x12, 0x69, 0x78, 0x3b,
  0x69, 0xa6, 0x09, 0x3e, 0xc0, 0xb6, 0xa3, 0xbe, 0xe9, 0x73, 0xa5, 0x3f,
  0x67, 0x33, 0x68, 0xbf, 0xbf, 0xb4, 0x25, 0x3e, 0x40, 0x82, 0xa9, 0xbe,
  0x23, 0x7f, 0x2b, 0x3f, 0x9b, 0x01, 0x30, 0x3f, 0x5b, 0xbf, 0x87, 0x3e,
  0x4f, 0xef, 0x52, 0x3f, 0x3f, 0xd5, 0xaf, 0x3e, 0x66, 0x81, 0x14, 0x3f,
  0x4c, 0x70, 0x2a, 0x3f, 0x1a, 0x63, 0xdc, 0x3d, 0xf1, 0xe9, 0xd6, 0xbe,
  0xd3, 0x8f, 0xe1, 0x3d, 0xc3, 0xa7, 0xcc, 0xbe, 0xf6, 0x4c, 0x21, 0xbf,
  0x83, 0x2d, 0x68, 0xbd, 0x3c, 0x43, 0x59, 0x3f, 0xc2, 0x97, 0x23, 0x3d,
  0xdc, 0x53, 0x48, 0x3f, 0x88, 0x85, 0xc7, 0x3e, 0xe4, 0xf3, 0xb7, 0xbe,
  0xd8, 0xac, 0x0d, 0x3f, 0xd2, 0xed, 0xff, 0xff, 0x04, 0x00, 0x00, 0x00,
  0x80, 0x07, 0x00, 0x00, 0xd8, 0xd3, 0x11, 0xbf, 0xf0, 0x74, 0x30, 0x3e,
  0xa0, 0xec, 0x5d, 0xbe, 0x8a, 0x28, 0xfa, 0xbe, 0x1b, 0xd9, 0xda, 0x3e,
  0xc2, 0x01, 0x26, 0x3f, 0x20, 0x09, 0xd7, 0xbc, 0x8d, 0xe0, 0x1e, 0x3f,
  0x0c, 0x0c, 0x02, 0xbe, 0xd1, 0xe6, 0x26, 0xbd, 0xd6, 0x82, 0x10, 0x3e,
  0x78, 0x49, 0xaf, 0xbf, 0x71, 0xbf, 0x0b, 0x3e, 0x99, 0x62, 0x39, 0x3f,
  0x18, 0x9c, 0x2f, 0x3e, 0x8a, 0x44, 0x1c, 0xbc, 0xcb, 0xa0, 0x34, 0xbd,
  0x9e, 0x07, 0x72, 0xbf, 0xcf, 0x1d, 0x9f, 0xbd, 0x39, 0x23, 0x2c, 0xbf,
  0x2b, 0xf0, 0x3c, 0xbf, 0x0f, 0x99, 0xc8, 0xbd, 0x86, 0x13, 0x22, 0x3f,
  0x98, 0xd3, 0x42, 0x3e, 0x9d, 0x8c, 0x89, 0x3b, 0x8e, 0x01, 0x8d, 0xbe,
  0xd1, 0x46, 0xef, 0xbd, 0x05, 0x4a, 0x66, 0xbe, 0x22, 0xcf, 0xc6, 0xbd,
  0x7d, 0xb8, 0x16, 0x3f, 0x5e, 0x33, 0x55, 0x3d, 0x65, 0x33, 0x57, 0x3e,
  0x0f, 0xc1, 0xd0, 0x3e, 0x95, 0x3d, 0x7a, 0xbe, 0x6e, 0xc3, 0x3c, 0xbe,
  0xb5, 0xe9, 0xaf, 0x3e, 0x58, 0xab, 0xe6, 0x3e, 0xc9, 0x7a, 0xb8, 0xbe,
  0xb6, 0x5f, 0xe5, 0x3d, 0x29, 0xcc, 0x51, 0x3f, 0x29, 0xa9, 0x97, 0xbe,
  0xf4, 0xa9, 0xa2, 0xbe, 0x73, 0x3b, 0x7d, 0x3e, 0x11, 0x89, 0x27, 0xbe,
  0x75, 0xbc, 0x9e, 0x3e, 0x08, 0xb2, 0x6c, 0xbd, 0xd1, 0xf7, 0xdf, 0x3f,
  0xc1, 0xb6, 0x31, 0xbd, 0xcb, 0xb0, 0xc5, 0xbd, 0x70, 0x25, 0xf6, 0x3d,
  0x04, 0x53, 0xbd, 0xbd, 0x1d, 0xb5, 0x23, 0x3e, 0x8d, 0x96, 0x38, 0xbf,
  0x11, 0x0f, 0x4a, 0xbe, 0x37, 0x5f, 0x45, 0x3e, 0x2b, 0xf7, 0x46, 0xbf,
  0x4f, 0x35, 0xcf, 0xbd, 0xbb, 0xf9, 0x54, 0xbc, 0x5e, 0xd1, 0x07, 0xbc,
  0x8d, 0xf1, 0xf2, 0xbd, 0xa6, 0x2b, 0x23, 0x3d, 0x72, 0x78, 0x9b, 0xbd,
  0xf3, 0x4a, 0x7e, 0x3f, 0x2b, 0x53, 0x55, 0x3c, 0x8d, 0x54, 0x4b, 0x3f,
  0x33, 0x12, 0x3f, 0x3f, 0x34, 0x94, 0x86, 0xbe, 0x07, 0x7a, 0x88, 0xbd,
  0xe2, 0x6c, 0x00, 0x3f, 0x2a, 0x87, 0x29, 0xbd, 0x92, 0x8d, 0x33, 0x3e,
  0xa5, 0x34, 0xa6, 0xbd, 0x66, 0xc8, 0x48, 0x3d, 0x69, 0xd3, 0x39, 0xbd,
  0x63, 0xc1, 0xd6, 0xbc, 0xde, 0x90, 0x91, 0xbf, 0x88, 0xef, 0x4a, 0x3e,
  0xeb, 0xa3, 0x80, 0xbd, 0xc2, 0xaf, 0xcb, 0x3e, 0xac, 0x22, 0x3f, 0xbf,
  0x7a, 0xf2, 0x1d, 0xbf, 0x3f, 0xbd, 0x54, 0xbd, 0x0e, 0x9c, 0x42, 0x3f,
  0xa2, 0x9a, 0x07, 0xbf, 0x9f, 0xbb, 0xf5, 0xbe, 0x31, 0x4f, 0x54, 0x3e,
  0xc6, 0x00, 0x3a, 0xbf, 0x5c, 0xd4, 0x07, 0xbe, 0x69, 0x14, 0x5f, 0x3e,
  0x96, 0x69, 0xde, 0x3e, 0x6c, 0x14, 0xa5, 0x3e, 0x03, 0xa1, 0x57, 0x3e,
  0x39, 0xd6, 0x98, 0xbe, 0xa4, 0xcc, 0x8f, 0x3e, 0xec, 0x0a, 0x9f, 0xbb,
  0x6a, 0x96, 0x80, 0xbe, 0xd1, 0x5b, 0x12, 0xbf, 0x5c, 0xeb, 0x2a, 0x3f,
  0x97, 0x78, 0x0c, 0xbf, 0x16, 0x19, 0x2c, 0xbf, 0x9c, 0x67, 0xd3, 0xbe,
  0xf4, 0x88, 0x95, 0xbe, 0x69, 0x44, 0xa9, 0xbe, 0x73, 0x83, 0x1f, 0xbf,
  0x11, 0xe0, 0x73, 0x3f, 0xbe, 0xd7, 0x8d, 0xbe, 0x73, 0x8d, 0x15, 0x3e,
  0xb7, 0xf6, 0x28, 0xbd, 0xd1, 0xee, 0xc6, 0xbd, 0x6a, 0x1a, 0x43, 0x3f,
  0xdc, 0xac, 0x56, 0x3e, 0x06, 0x4e, 0x15, 0x3f, 0xcd, 0x16, 0x07, 0xbf,
  0x21, 0xb1, 0x5d, 0xbe, 0x72, 0x88, 0x9b, 0xbd, 0xd7, 0x87, 0x2c, 0xbe,
  0xb1, 0xeb, 0x1d, 0xbf, 0x05, 0x25, 0x58, 0x3e, 0x9f, 0xda, 0x93, 0xbe,
  0xde, 0xca, 0xa4, 0x3e, 0x31, 0xdb, 0xa8, 0x3f, 0x5c, 0xcb, 0x23, 0xbd,
  0xf6, 0x90, 0x35, 0xbc, 0x4c, 0xf3, 0xc0, 0xbe, 0x25, 0xc9, 0x9a, 0xbd,
  0x51, 0x1a, 0xbd, 0xbc, 0xb6, 0x4b, 0xd6, 0xbd, 0x52, 0xe0, 0x94, 0xbd,
  0x1b, 0x45, 0x94, 0x3d, 0xeb, 0x54, 0x84, 0x3e, 0x98, 0x95, 0x94, 0xbe,
  0xd4, 0x9f, 0xce, 0x3d, 0x03, 0xae, 0xcc, 0xbe, 0x15, 0x9f, 0xdc, 0x3e,
  0xdc, 0x79, 0xf5, 0xbe, 0x05, 0x08, 0x09, 0x3e, 0x64, 0x6b, 0x8b, 0x3e,
  0xe8, 0x52, 0x6d, 0x3f, 0x93, 0x02, 0x23, 0x3d, 0xde, 0xcc, 0xdb, 0xbe,
  0xf2, 0xc8, 0x23, 0xbf, 0x62, 0xd5, 0x64, 0xbe, 0x84, 0x4c, 0xc0, 0x3e,
  0x90, 0x0c, 0xdf, 0xbe, 0xc5, 0xf3, 0x7a, 0xbe, 0x9a, 0x97, 0x81, 0x3f,
  0x3a, 0xd5, 0x0a, 0xbf, 0x41, 0x37, 0xc2, 0xbe, 0xce, 0x21, 0xca, 0xbc,
  0x0a, 0x06, 0xc3, 0x3d, 0x97, 0x7c, 0x10, 0xbe, 0xb7, 0x09, 0xf7, 0x3f,
  0x95, 0x85, 0x4b, 0xbe, 0x77, 0x4e, 0xe7, 0xbe, 0xab, 0x01, 0x7f, 0xbe,
  0xb6, 0x02, 0xef, 0x3d, 0x2e, 0xcc, 0x8c, 0x3e, 0xd9, 0x12, 0xee, 0xbe,
  0x25, 0xbc, 0x15, 0xbe, 0xea, 0x41, 0x85, 0x3e, 0xb0, 0x8d, 0xc4, 0x3e,
  0xa8, 0xc1, 0xb2, 0xbe, 0x47, 0xad, 0x29, 0x3d, 0x03, 0xe8, 0xaa, 0x3d,
  0xf4, 0x6c, 0xb4, 0xbe, 0x9b, 0x14, 0xb7, 0xbd, 0x03, 0x11, 0x77, 0xbd,
  0x67, 0xac, 0xc6, 0xbe, 0x12, 0x3d, 0xc5, 0xbf, 0x53, 0xab, 0x0c, 0x3f,
  0x6e, 0x34, 0x4e, 0x3f, 0x62, 0xc2, 0x14, 0xbe, 0x70, 0x14, 0x8f, 0xbe,
  0xf3, 0x28, 0xef, 0x3d, 0x9f, 0x28, 0x1e, 0xbd, 0x96, 0xb4, 0xbc, 0x3e,
  0x61, 0x8e, 0x2d, 0x3e, 0x97, 0x83, 0xaa, 0x3e, 0x97, 0x87, 0x1a, 0xbf,
  0x3a, 0xc5, 0xd7, 0xbc, 0x83, 0x0a, 0x2b, 0x3e, 0x48, 0x8c, 0xa7, 0xbd,
  0x89, 0xd1, 0xa9, 0x3c, 0x80, 0x93, 0x27, 0x3e, 0x43, 0xfe, 0x36, 0xbf,
  0xc1, 0x31, 0x29, 0xbf, 0x15, 0xb4, 0x61, 0xbd, 0x10, 0x3f, 0x3f, 0xbf,
  0xba, 0xcf, 0x0b, 0x3d, 0x5e, 0x87, 0xbb, 0xbc, 0x74, 0xef, 0x52, 0x3d,
  0x4e, 0xad, 0x08, 0x3f, 0xbd, 0x77, 0x89, 0x3d, 0x13, 0x9a, 0x8c, 0xbe,
  0x63, 0x93, 0x83, 0xbe, 0xf9, 0xa7, 0x34, 0x3e, 0xa5, 0x1a, 0xc7, 0x3e,
  0x58, 0xb6, 0x2f, 0x3e, 0x85, 0x87, 0x4d, 0xbf, 0xa7, 0xd4, 0x13, 0xbe,
  0x88, 0x50, 0xaa, 0x3d, 0x3a, 0x6f, 0xd9, 0x3e, 0xba, 0x6a, 0x84, 0xbf,
  0x1f, 0x5f, 0xce, 0x3e, 0x94, 0xd5, 0x13, 0x3f, 0xac, 0xdc, 0x8f, 0xbd,
  0xa3, 0xf4, 0x5b, 0x3d, 0xc8, 0xd0, 0xd2, 0xbf, 0xfa, 0x30, 0x9d, 0x3e,
  0xa5, 0x41, 0xa0, 0xbe, 0x89, 0xa6, 0x16, 0xbf, 0x4a, 0x31, 0x3d, 0xbe,
  0x7d, 0x83, 0x15, 0x3f, 0xbd, 0xfa, 0x05, 0xbf, 0xd5, 0xb9, 0x2c, 0x3e,
  0x79, 0xa3, 0xda, 0x3e, 0xb1, 0x27, 0x7c, 0xbe, 0x47, 0x19, 0xeb, 0x3d,
  0xdb, 0x88, 0xac, 0xbe, 0x37, 0x41, 0xb8, 0xbe, 0x0a, 0xee, 0x89, 0x3c,
  0xd6, 0x0a, 0x1b, 0x3f, 0xea, 0x74, 0xad, 0xbd, 0x6a, 0xde, 0x9c, 0x3c,
  0x24, 0x96, 0x93, 0xbe, 0x1e, 0x55, 0xc4, 0xbe, 0x09, 0x63, 0xb1, 0x3e,
  0x59, 0x2e, 0x75, 0xbf, 0xc2, 0xb7, 0x31, 0xbf, 0x31, 0x8c, 0x5f, 0xbe,
  0x78, 0x6b, 0x2d, 0xbf, 0xcf, 0x1e, 0x41, 0x3e, 0xa6, 0x63, 0x66, 0xbf,
  0xc3, 0xcf, 0xaf, 0x3e, 0xb6, 0x95, 0x5c, 0x3e, 0x0f, 0x25, 0x55, 0x3c,
  0xc8, 0xfc, 0x6e, 0xbe, 0x4b, 0x47, 0x02, 0x3e, 0xca, 0xab, 0x20, 0xbd,
  0x99, 0x31, 0x1e, 0x3e, 0x27, 0x28, 0x9a, 0x3c, 0x21, 0x06, 0xe1, 0x3d,
  0x45, 0xf8, 0x26, 0x3f, 0xf6, 0xbe, 0xdc, 0x3e, 0x53, 0x55, 0x77, 0x3f,
  0xed, 0x65, 0x42, 0x3f, 0xd5, 0x98, 0xb5, 0x3c, 0x4b, 0xca, 0xbb, 0x3d,
  0xcc, 0x23, 0xeb, 0xbd, 0x1b, 0x0d, 0x12, 0x3c, 0x40, 0x97, 0x62, 0xbf,
  0x4f, 0xfc, 0x87, 0x3e, 0x5e, 0xe8, 0x09, 0xbe, 0xbf, 0x3e, 0x8b, 0x3c,
  0xe9, 0xb1, 0x23, 0xbe, 0x9a, 0x0d, 0x87, 0xbe, 0xea, 0xe5, 0x52, 0x3f,
  0x5f, 0xe5, 0x96, 0x3c, 0xee, 0xc4, 0x84, 0x3e, 0x60, 0xee, 0x08, 0x3e,
  0x13, 0x83, 0xa5, 0xbd, 0x13, 0x09, 0xc2, 0x3e, 0x67, 0x00, 0xae, 0xbe,
  0x0b, 0x07, 0x5a, 0xbe, 0xc2, 0xf7, 0x4e, 0xbc, 0xe7, 0x06, 0x5c, 0xbf,
  0x59, 0xe4, 0x1f, 0x3f, 0xbc, 0x08, 0xbf, 0x3e, 0xec, 0x40, 0x87, 0xbf,
  0xa3, 0xc1, 0x35, 0x3f, 0x98, 0x42, 0x1e, 0x3f, 0x6f, 0xdd, 0xbe, 0x3e,
  0x89, 0xf4, 0xb7, 0xbe, 0x8c, 0x1d, 0x5c, 0x3e, 0x07, 0xfe, 0xa3, 0x3e,
  0xff, 0x66, 0x19, 0xbe, 0x67, 0x83, 0x29, 0xbe, 0x00, 0x6a, 0x70, 0x3f,
  0x72, 0x85, 0xa5, 0xbe, 0x54, 0xe6, 0xec, 0xbc, 0xbd, 0xb3, 0x0c, 0x3f,
  0xb2, 0x72, 0x68, 0x3d, 0xe7, 0x7c, 0x04, 0xbf, 0x57, 0x06, 0xea, 0x3e,
  0xdb, 0x3e, 0x06, 0xbf, 0x25, 0x7a, 0xac, 0x3d, 0x8c, 0xa2, 0xe5, 0xbd,
  0x1a, 0x2c, 0x89, 0x3d, 0x1b, 0x98, 0xd6, 0xbe, 0xfc, 0xd1, 0x86, 0xbd,
  0x25, 0xc7, 0x15, 0xbf, 0x79, 0x1e, 0xb7, 0x3e, 0x80, 0x18, 0xa8, 0xbe,
  0xbd, 0x52, 0xe8, 0x3e, 0x92, 0xfe, 0xc8, 0x3e, 0x88, 0x94, 0x8a, 0xbf,
  0x7f, 0xca, 0x10, 0x3e, 0xe0, 0x44, 0xc9, 0xbd, 0x66, 0x9b, 0x10, 0xbf,
  0x08, 0x3b, 0x29, 0x3f, 0x37, 0xfa, 0x58, 0x3e, 0x21, 0xa0, 0x1f, 0xbe,
  0xdc, 0xd9, 0x9c, 0x3e, 0x2a, 0x99, 0xef, 0x3c, 0x36, 0x7c, 0x0f, 0x3f,
  0xfe, 0xac, 0x05, 0x3f, 0x32, 0x67, 0xdf, 0xbd, 0xef, 0x8f, 0x31, 0xbf,
  0xb8, 0xdd, 0xa3, 0x3d, 0xf8, 0x53, 0x1a, 0x3e, 0x46, 0x9b, 0x46, 0x3f,
  0x9d, 0xc9, 0x70, 0xbb, 0xac, 0x57, 0x14, 0xbe, 0xf4, 0x0c, 0x69, 0xbe,
  0xa4, 0x13, 0x24, 0xbf, 0xb0, 0x57, 0xfb, 0x3e, 0xde, 0xc1, 0xac, 0x3e,
  0x20, 0x2f, 0xb8, 0xbe, 0x6f, 0xd2, 0x8b, 0xbe, 0x0e, 0xb1, 0x1d, 0xbe,
  0x82, 0xf0, 0x0c, 0xbe, 0xf8, 0x12, 0x53, 0xbe, 0xf2, 0x13, 0x5a, 0xbd,
  0xab, 0x56, 0x05, 0xbe, 0xbc, 0xb5, 0x04, 0xbe, 0x57, 0x6d, 0x3f, 0xbf,
  0xcb, 0x64, 0x57, 0x3f, 0x80, 0xb9, 0x09, 0xbf, 0xae, 0x2d, 0x1b, 0x3f,
  0xe1, 0xa3, 0x78, 0xbf, 0xba, 0x14, 0x15, 0xbe, 0x13, 0xcc, 0xe7, 0x3e,
  0x67, 0xa4, 0x4b, 0xbe, 0xf5, 0xd9, 0xe6, 0xbe, 0xae, 0xaf, 0xc9, 0xbc,
  0x36, 0x4c, 0x0b, 0xbf, 0x13, 0xb1, 0x86, 0xbd, 0x88, 0xb6, 0xe1, 0xbd,
  0x7e, 0x62, 0xb6, 0xbd, 0x3d, 0xd8, 0xd9, 0xbb, 0x34, 0xd5, 0x1d, 0x3e,
  0x50, 0x4d, 0x42, 0xbf, 0x4b, 0x30, 0xc3, 0x3e, 0x8b, 0x38, 0x2d, 0x3f,
  0x89, 0x5b, 0x63, 0xbf, 0x98, 0x6d, 0xfc, 0xbe, 0x27, 0xdd, 0x0b, 0xbe,
  0xa3, 0x0b, 0x83, 0xbe, 0x13, 0x89, 0xc6, 0xbf, 0x02, 0x42, 0x6a, 0xbe,
  0xd0, 0x7e, 0xf4, 0xbe, 0xe5, 0x48, 0x65, 0xbe, 0x28, 0x6e, 0x9c, 0x3e,
  0x71, 0x41, 0x18, 0x3e, 0x10, 0x29, 0x65, 0xbe, 0x8b, 0xcb, 0x50, 0x3e,
  0x88, 0x1d, 0xd4, 0xbe, 0x2b, 0x5e, 0x26, 0x3d, 0x8b, 0x86, 0xea, 0xbc,
  0x4c, 0x62, 0x87, 0xbe, 0xb9, 0xc9, 0x55, 0x3c, 0xb2, 0x24, 0x81, 0xbb,
  0x76, 0x32, 0xe8, 0xbf, 0x62, 0x07, 0xfc, 0xbd, 0xa1, 0x22, 0x1a, 0x3f,
  0xe0, 0x66, 0xc2, 0x3e, 0x5d, 0x42, 0xc5, 0xbe, 0xcc, 0x5b, 0xd4, 0x3e,
  0xcf, 0x0a, 0x50, 0x3d, 0xee, 0x34, 0x16, 0xbe, 0xfb, 0xc7, 0x9e, 0x3e,
  0xeb, 0x2c, 0x9d, 0x3e, 0x96, 0x40, 0x9e, 0x3e, 0x6c, 0x29, 0xa1, 0xbf,
  0x3a, 0x0c, 0xca, 0x3e, 0x12, 0xee, 0x22, 0xbd, 0x57, 0xd4, 0xa1, 0x3d,
  0x6f, 0xdf, 0xa9, 0xbf, 0x96, 0xda, 0xb2, 0x3d, 0xde, 0x50, 0x26, 0xbf,
  0x76, 0x54, 0x28, 0xbf, 0x4e, 0x72, 0x13, 0xbf, 0x44, 0x27, 0xbd, 0x3e,
  0xd2, 0xbc, 0xb2, 0xbe, 0xb5, 0xeb, 0xee, 0xbe, 0x15, 0x64, 0x26, 0x3e,
  0x10, 0x0e, 0xd0, 0xbe, 0x25, 0x5a, 0x95, 0xbe, 0xd7, 0xed, 0xe9, 0xbe,
  0x2d, 0x3c, 0x61, 0x3e, 0xbe, 0x57, 0xf6, 0xbe, 0x12, 0xd0, 0xce, 0x3d,
  0xf8, 0xd7, 0x28, 0x3d, 0x80, 0x99, 0x70, 0xbe, 0x17, 0xcd, 0x84, 0x3e,
  0xe1, 0x37, 0x73, 0xbe, 0xab, 0x45, 0xef, 0x3d, 0x33, 0x28, 0x3b, 0xbf,
  0x65, 0xba, 0x35, 0x3e, 0x56, 0x7a, 0x3c, 0x3c, 0x11, 0x4f, 0x44, 0x3f,
  0xf1, 0x41, 0xb1, 0xbf, 0xf9, 0xf6, 0xfa, 0x3e, 0x31, 0x48, 0x20, 0x3e,
  0xef, 0xf3, 0x5e, 0xbe, 0xba, 0xea, 0x3a, 0xbf, 0x28, 0x6a, 0xdd, 0x3d,
  0x6f, 0xc4, 0x64, 0xbe, 0x37, 0x23, 0x38, 0xbe, 0xb8, 0xd2, 0x64, 0x3e,
  0x2a, 0x43, 0xac, 0x3e, 0x37, 0x14, 0x94, 0xbe, 0x35, 0x5a, 0x1f, 0x3f,
  0xc5, 0x97, 0x02, 0xbf, 0x3f, 0x17, 0x14, 0xbf, 0xbd, 0x8d, 0x94, 0x3e,
  0xae, 0x78, 0x54, 0x3e, 0xca, 0x5b, 0xa2, 0xbe, 0x09, 0x15, 0x3e, 0xbe,
  0x6b, 0xd4, 0xb0, 0xbd, 0xbe, 0x84, 0xb6, 0xbd, 0xfd, 0x11, 0xeb, 0x3c,
  0x1f, 0x29, 0xe9, 0xbf, 0x6e, 0xaf, 0xce, 0xba, 0xe7, 0x86, 0x36, 0xbf,
  0x4d, 0xb0, 0x3d, 0xbf, 0xa9, 0x14, 0xee, 0xbe, 0x3f, 0x51, 0x64, 0x3f,
  0xe6, 0x87, 0xc6, 0xbd, 0xf6, 0xf9, 0x81, 0xbe, 0xad, 0x94, 0xe1, 0xbc,
  0x89, 0x04, 0xe0, 0xbd, 0xaa, 0x1b, 0x7f, 0xbc, 0xcb, 0x31, 0x18, 0xbd,
  0xbc, 0x53, 0xc0, 0xbd, 0x59, 0x54, 0x51, 0xbd, 0xcc, 0x8b, 0xb6, 0x3e,
  0xf5, 0x8c, 0xac, 0x3c, 0xd6, 0x34, 0x29, 0xbf, 0xd0, 0x91, 0xa6, 0xbe,
  0x93, 0x80, 0x12, 0x3e, 0x2f, 0xb1, 0x5e, 0xbe, 0xb8, 0x02, 0x4a, 0x3f,
  0x32, 0xf9, 0x88, 0xbe, 0xea, 0xc1, 0xa1, 0xbe, 0x30, 0x8e, 0xbb, 0x3e,
  0x0f, 0x22, 0x43, 0xbf, 0xea, 0xca, 0x11, 0x3f, 0xf8, 0xfc, 0xb5, 0x3e,
  0x8b, 0x8b, 0x39, 0xbf, 0x82, 0x29, 0x6c, 0xbd, 0x51, 0x80, 0x50, 0xbd,
  0xbd, 0x6a, 0x13, 0xbd, 0x70, 0x62, 0x22, 0x3f, 0x6e, 0xa8, 0x96, 0xbd,
  0xd0, 0xa3, 0xeb, 0x3d, 0x85, 0x2b, 0x34, 0xbf, 0x95, 0xa8, 0x23, 0xbd,
  0x29, 0xb1, 0xfe, 0x3e, 0xc9, 0xfb, 0xf0, 0x3e, 0x54, 0x11, 0x06, 0xbf,
  0x53, 0xe3, 0xfc, 0x3e, 0x1e, 0xde, 0xfb, 0x3e, 0x38, 0xe5, 0x0b, 0xbf,
  0xbe, 0x4e, 0x09, 0x3f, 0x85, 0xc2, 0x14, 0x3e, 0x52, 0xd4, 0x19, 0xbd,
  0x92, 0x5b, 0xa3, 0xbe, 0x12, 0x4d, 0x02, 0x3d, 0xee, 0xc3, 0xe5, 0x3d,
  0x81, 0x49, 0x2e, 0xbc, 0x45, 0x74, 0xb1, 0x3c, 0x76, 0x88, 0x1a, 0x3f,
  0xa4, 0xba, 0x6e, 0x3e, 0x6b, 0xc5, 0xe9, 0x3d, 0x92, 0xab, 0xf8, 0x3e,
  0xe9, 0xd5, 0x54, 0x3f, 0x2c, 0xde, 0x44, 0xbf, 0x83, 0x3e, 0xac, 0x3e,
  0x74, 0x0b, 0x03, 0xbf, 0x5e, 0xf5, 0xff, 0xff, 0x04, 0x00, 0x00, 0x00,
  0x00, 0x08, 0x00, 0x00, 0x16, 0x37, 0x1d, 0xbe, 0xaa, 0x44, 0x84, 0xbb,
  0x9f, 0xdf, 0x28, 0xbb, 0xe3, 0x38, 0x81, 0xbe, 0x34, 0x78, 0x07, 0x3f,
  0x90, 0x7a, 0x68, 0xbe, 0xd9, 0xba, 0xda, 0x3e, 0xeb, 0x8e, 0x18, 0x3e,
  0xcb, 0x2b, 0xce, 0xbd, 0xed, 0x04, 0xfc, 0x3e, 0x48, 0xbb, 0x9c, 0xbf,
  0x93, 0xbc, 0xa4, 0x3d, 0x29, 0x12, 0x7f, 0x3e, 0xd5, 0xb4, 0x90, 0x3f,
  0x24, 0x32, 0x5a, 0xbe, 0x8f, 0x1b, 0x86, 0x3e, 0x90, 0xb2, 0x12, 0x3f,
  0x44, 0x9c, 0xfe, 0x3e, 0x02, 0xa3, 0x10, 0x3f, 0x15, 0x82, 0x6a, 0x3e,
  0xcc, 0xf7, 0xc1, 0xbd, 0xba, 0xbb, 0xde, 0x3e, 0x5b, 0x4e, 0x30, 0x3f,
  0xca, 0x41, 0x48, 0xbe, 0xe7, 0x94, 0x90, 0x3e, 0xa9, 0xe5, 0xe7, 0x3d,
  0x8d, 0x57, 0xdd, 0x3e, 0x83, 0xc9, 0x02, 0xbf, 0x80, 0x41, 0xd3, 0x3d,
  0xa2, 0x16, 0xba, 0x3e, 0x2b, 0x8a, 0x38, 0xbe, 0x51, 0xc2, 0xcc, 0x3d,
  0xe8, 0x53, 0x83, 0xbe, 0x35, 0x9b, 0x27, 0xbf, 0xb6, 0x87, 0x90, 0xbc,
  0xa7, 0x55, 0xf6, 0x3c, 0x8e, 0x44, 0xfa, 0x3d, 0xc4, 0x2a, 0xb3, 0x3e,
  0x07, 0x43, 0xa6, 0xbe, 0x45, 0xa7, 0x8c, 0x3e, 0x33, 0x93, 0xa8, 0x3e,
  0xaa, 0xc2, 0x88, 0x3f, 0xee, 0x7b, 0xbd, 0x39, 0xab, 0xb2, 0xbf, 0x3e,
  0x24, 0xc5, 0x4f, 0xbe, 0x06, 0x53, 0x6c, 0x3d, 0x94, 0x6c, 0xdc, 0x3e,
  0x9f, 0xa4, 0x23, 0x3d, 0xf1, 0xc3, 0x1b, 0x3f, 0xb0, 0x37, 0x07, 0x3e,
  0x53, 0x29, 0xcd, 0xbe, 0x90, 0xa3, 0x64, 0x3f, 0x00, 0xa5, 0xc7, 0x3e,
  0xaf, 0xf1, 0x20, 0xbe, 0x17, 0x90, 0x3e, 0xbd, 0xb9, 0x8e, 0xcf, 0xbd,
  0x0b, 0x9a, 0x3a, 0xc0, 0xb2, 0x19, 0xc2, 0xbf, 0x75, 0x5d, 0xcf, 0x3d,
  0xce, 0x13, 0xe1, 0xbe, 0xd1, 0xca, 0x1a, 0xc0, 0xd4, 0xa7, 0x2a, 0x3e,
  0x9d, 0xd8, 0xb3, 0x3d, 0xde, 0x44, 0xfa, 0xbe, 0xcb, 0x99, 0xb7, 0x3e,
  0x42, 0x74, 0x11, 0x3f, 0x4c, 0xe3, 0x24, 0x3d, 0xcc, 0x05, 0x6c, 0xbf,
  0x5d, 0x7c, 0x0e, 0x3f, 0xd1, 0x32, 0xd9, 0xbe, 0xdd, 0xc4, 0x2a, 0x3f,
  0xde, 0x31, 0xc7, 0xbd, 0x8a, 0x44, 0x27, 0xbe, 0x8b, 0x6d, 0xde, 0x3e,
  0x46, 0xfc, 0x98, 0xbf, 0x4a, 0x34, 0x00, 0x3f, 0x3a, 0xbe, 0x30, 0xbe,
  0x56, 0xd9, 0x54, 0x3f, 0xdd, 0x27, 0x99, 0xbd, 0x5d, 0xc5, 0x35, 0x3e,
  0x12, 0x72, 0x54, 0xbc, 0x8c, 0xfe, 0xc0, 0x3d, 0x70, 0x23, 0xb2, 0x3e,
  0x30, 0xef, 0xb6, 0x3e, 0xea, 0x5b, 0x66, 0x3e, 0xf3, 0xa9, 0x12, 0xbe,
  0x6b, 0x6b, 0xfd, 0x3e, 0xd5, 0x2f, 0xbb, 0xbe, 0xc8, 0x98, 0xd2, 0xbd,
  0x11, 0x87, 0xbd, 0xbe, 0x4f, 0x90, 0x46, 0x3f, 0xe8, 0x7c, 0xd6, 0xbe,
  0x87, 0x73, 0x32, 0x3e, 0x86, 0xed, 0x22, 0x3e, 0xfd, 0x65, 0x7b, 0x3e,
  0x30, 0xd0, 0x87, 0x3e, 0xd1, 0xfc, 0x77, 0x3e, 0x7b, 0xff, 0x95, 0xbd,
  0xa9, 0xea, 0xee, 0xbd, 0x7b, 0x85, 0xdf, 0xbe, 0xe5, 0x1d, 0xe8, 0x3e,
  0x3c, 0xd8, 0x4b, 0xbe, 0x7c, 0x89, 0x24, 0x3f, 0xef, 0x6e, 0x00, 0x3f,
  0x63, 0xd5, 0x74, 0xbe, 0xca, 0x50, 0x12, 0x3f, 0xdc, 0x4c, 0x0e, 0xbf,
  0x04, 0x3b, 0xae, 0x3e, 0x2d, 0x6c, 0x11, 0x3e, 0x47, 0x31, 0x88, 0x3f,
  0x3d, 0xc4, 0xd2, 0xbe, 0xdd, 0x8a, 0x09, 0x3e, 0x12, 0xf9, 0x2b, 0x3f,
  0x8e, 0x2e, 0xb0, 0x3e, 0x85, 0x0c, 0x53, 0x3e, 0x23, 0x49, 0x13, 0x3f,
  0x3f, 0x0d, 0x97, 0x3e, 0x7e, 0xe4, 0xb3, 0x3e, 0x64, 0xc2, 0x72, 0x3e,
  0xdd, 0xe3, 0xed, 0xbe, 0x39, 0xc0, 0xa6, 0xbd, 0x11, 0x0a, 0x3a, 0xbe,
  0x74, 0x10, 0x24, 0x3f, 0x2e, 0x04, 0x19, 0x3c, 0xb9, 0x48, 0x41, 0xbe,
  0xc8, 0x50, 0x3e, 0x3f, 0x19, 0x07, 0xa2, 0x3e, 0x64, 0x71, 0x26, 0x3e,
  0xbb, 0xd0, 0xb6, 0x3e, 0xc4, 0x72, 0x28, 0x3f, 0x11, 0xbe, 0xe9, 0x3e,
  0x68, 0x67, 0xa7, 0xbe, 0x81, 0x07, 0x37, 0x3f, 0x8c, 0x66, 0xad, 0xbe,
  0x70, 0x72, 0xe6, 0x3e, 0x76, 0x61, 0x91, 0x3e, 0xc3, 0xaa, 0x96, 0xbd,
  0x17, 0x91, 0x26, 0x3f, 0x25, 0xae, 0x92, 0xbf, 0x60, 0x05, 0x6e, 0x3f,
  0x79, 0xf7, 0xbd, 0x3e, 0x11, 0xde, 0xb7, 0x3f, 0x8e, 0x2a, 0xa8, 0x3e,
  0x59, 0x6d, 0xad, 0x3e, 0x59, 0x5f, 0x18, 0x3e, 0x8a, 0x1f, 0xc3, 0xbd,
  0xcc, 0x37, 0x84, 0x3e, 0x2c, 0xd8, 0xd9, 0x3e, 0xe1, 0x1d, 0x8d, 0x3e,
  0x32, 0x85, 0x5d, 0x3e, 0x3c, 0xb5, 0xdf, 0x3e, 0x26, 0x7c, 0xb8, 0xbe,
  0xf2, 0xf9, 0x0d, 0xbf, 0xc8, 0xa5, 0x15, 0xbf, 0x27, 0xa6, 0x30, 0x3e,
  0x0b, 0x61, 0x03, 0xbf, 0xdd, 0xf2, 0x4d, 0xbd, 0x23, 0x58, 0x96, 0x3e,
  0xa6, 0xa5, 0x52, 0xbe, 0x13, 0xca, 0x47, 0xbe, 0x6f, 0x6b, 0xb3, 0x3e,
  0x46, 0xf8, 0xd2, 0x3e, 0xb3, 0x07, 0xf8, 0xbc, 0x4a, 0x14, 0x31, 0xbf,
  0x0f, 0x10, 0x57, 0x3b, 0xde, 0x2c, 0x1c, 0xbf, 0xf9, 0x76, 0x22, 0x3f,
  0x75, 0x75, 0x83, 0xbd, 0xdd, 0x3b, 0x0c, 0xbf, 0x59, 0x68, 0x7f, 0xbe,
  0x6a, 0x5f, 0x11, 0xbf, 0xa2, 0x0e, 0x9f, 0x3e, 0x9e, 0xb9, 0x46, 0x3e,
  0x79, 0x85, 0xe6, 0x3e, 0x5d, 0x02, 0xb4, 0xbe, 0xba, 0x5e, 0x9d, 0x3e,
  0x44, 0x55, 0xa5, 0x3e, 0x0f, 0x05, 0xde, 0x3e, 0xe9, 0x40, 0x38, 0x3f,
  0x99, 0x94, 0x4d, 0x3e, 0x05, 0x20, 0x9a, 0x3e, 0x44, 0xc3, 0x4e, 0x3f,
  0xa1, 0xc1, 0x14, 0x3f, 0x59, 0x9f, 0xc6, 0xbe, 0x86, 0xd9, 0xbf, 0xbc,
  0x6f, 0x22, 0x0e, 0xbe, 0xf8, 0x99, 0x32, 0x3e, 0xc8, 0x90, 0x60, 0xbe,
  0xfa, 0x09, 0xcf, 0x3e, 0x7f, 0xde, 0x4f, 0x3f, 0xf6, 0x81, 0xc2, 0xbd,
  0x6b, 0xe4, 0x87, 0x3e, 0x2d, 0xb3, 0x7c, 0xbd, 0x9b, 0x05, 0x44, 0x3f,
  0x2d, 0xa3, 0xb5, 0x3e, 0x34, 0x49, 0xc7, 0xbe, 0xbd, 0xf6, 0x09, 0x3f,
  0x8e, 0xad, 0x76, 0xbe, 0x0a, 0x9a, 0xe4, 0x3e, 0x63, 0x6f, 0xb7, 0xbd,
  0x96, 0x97, 0xc7, 0xbe, 0xae, 0xd4, 0x2f, 0x3f, 0xde, 0x8a, 0x89, 0xbf,
  0xca, 0xaf, 0x7c, 0x3f, 0xe8, 0x3d, 0x31, 0xbe, 0xa0, 0x60, 0xa3, 0x3f,
  0xcb, 0x67, 0xcd, 0x3c, 0x15, 0x9e, 0x54, 0x3f, 0x13, 0x58, 0xc0, 0x3d,
  0x7a, 0x7e, 0x97, 0x3e, 0x82, 0x77, 0x0d, 0x3f, 0xa6, 0x62, 0xaf, 0x3e,
  0xe9, 0xe3, 0xcd, 0x3e, 0xb6, 0x14, 0x39, 0xbe, 0x61, 0xec, 0xf4, 0x3e,
  0xde, 0xd1, 0x5a, 0xbe, 0xef, 0x78, 0xda, 0xbe, 0x07, 0x02, 0x30, 0xbf,
  0xb5, 0x8c, 0x83, 0x3e, 0xaa, 0xbd, 0x06, 0xbe, 0x13, 0xc9, 0xd7, 0xbe,
  0x17, 0x9c, 0xba, 0x3e, 0xeb, 0xc6, 0xb7, 0xbe, 0x4b, 0x72, 0xbe, 0xbd,
  0x71, 0x59, 0x4f, 0xbf, 0xde, 0x10, 0x46, 0xbe, 0x43, 0x59, 0x3b, 0x3e,
  0xf3, 0x31, 0xff, 0xbc, 0x4d, 0xda, 0x07, 0xbe, 0xea, 0x06, 0xaf, 0xbf,
  0xf4, 0x2e, 0x3f, 0x3f, 0x46, 0xb7, 0xa7, 0xbe, 0xe7, 0x4c, 0x07, 0x3f,
  0x03, 0xe4, 0xe4, 0x3e, 0x68, 0x4a, 0x9b, 0xbc, 0x62, 0x66, 0x2e, 0x3f,
  0x42, 0x9d, 0xef, 0x3e, 0x12, 0xb9, 0x56, 0x3e, 0x5b, 0x54, 0xdc, 0xbe,
  0x88, 0x5b, 0x96, 0x3e, 0x43, 0xc9, 0x64, 0x3e, 0xed, 0xa9, 0x3f, 0xbc,
  0x9a, 0x6e, 0x41, 0x3f, 0x2f, 0x17, 0x40, 0xbe, 0x90, 0xea, 0xa3, 0x3e,
  0x3b, 0xb7, 0xf8, 0x3d, 0xec, 0xbe, 0x15, 0xbf, 0x7c, 0xac, 0xc1, 0x3e,
  0x18, 0x17, 0x53, 0xbe, 0xe1, 0xbf, 0x49, 0x3d, 0x65, 0x18, 0xc4, 0xbe,
  0x75, 0xab, 0x41, 0xbf, 0x91, 0xf0, 0x03, 0x3e, 0x95, 0x96, 0x71, 0x3e,
  0x6c, 0x5b, 0xf5, 0xbe, 0x32, 0xa2, 0x04, 0xbf, 0x60, 0x1c, 0xaa, 0x3e,
  0x47, 0x28, 0xb5, 0x3e, 0x35, 0x16, 0xcd, 0x3e, 0xb1, 0xe7, 0x23, 0xbf,
  0xfe, 0x76, 0xf3, 0xbd, 0xc7, 0x5e, 0x01, 0xbe, 0xbf, 0x22, 0x3b, 0x3f,
  0x79, 0xc5, 0xe5, 0x3d, 0xd4, 0x2d, 0x27, 0xbf, 0xa2, 0x55, 0x3a, 0x3e,
  0x77, 0x84, 0x0d, 0xbf, 0x9f, 0xda, 0x76, 0x3e, 0xe5, 0xce, 0x8b, 0xbd,
  0xc3, 0xa5, 0x67, 0x3f, 0x34, 0x21, 0x47, 0x3c, 0xcf, 0x75, 0xc4, 0x3c,
  0x6e, 0x87, 0x24, 0x3f, 0x17, 0xc0, 0x27, 0x3f, 0x7c, 0x89, 0x86, 0x3e,
  0xf3, 0x83, 0x79, 0x3d, 0xdc, 0xa4, 0x0f, 0x3f, 0x01, 0xa5, 0x2d, 0x3f,
  0x0b, 0x96, 0x3a, 0x3f, 0xd5, 0x6b, 0xc9, 0xbd, 0xb9, 0xed, 0x7f, 0xbd,
  0x24, 0x08, 0x1b, 0xbe, 0x60, 0x8f, 0x3c, 0x3f, 0x41, 0x13, 0xc9, 0xb9,
  0x5e, 0x88, 0x9c, 0x3e, 0xa0, 0x1d, 0x19, 0x3f, 0xed, 0x2d, 0x02, 0x3f,
  0xea, 0x71, 0x59, 0x3e, 0x52, 0x22, 0x3d, 0xbf, 0xbb, 0xad, 0xd7, 0x3d,
  0xa3, 0x33, 0x25, 0x3d, 0xff, 0xdf, 0x13, 0xbf, 0xfd, 0xf8, 0xb7, 0xbe,
  0x71, 0xcc, 0x0b, 0xbf, 0x15, 0x2a, 0x18, 0xbf, 0x7d, 0xd0, 0x42, 0xbc,
  0x28, 0x7e, 0xc0, 0x3e, 0x8e, 0x68, 0x99, 0x3c, 0x90, 0x53, 0x4f, 0x3f,
  0x4c, 0x4d, 0x8c, 0x3e, 0x67, 0xbf, 0x33, 0x3e, 0xbb, 0xd2, 0x43, 0x3f,
  0x48, 0x08, 0x94, 0xbc, 0x8d, 0x38, 0x33, 0x3f, 0x13, 0x66, 0x80, 0x3e,
  0x38, 0x19, 0x6c, 0x3e, 0xd0, 0x8b, 0x8a, 0xbf, 0x88, 0xa8, 0x62, 0x3f,
  0xde, 0x70, 0x4a, 0x3e, 0x7f, 0x30, 0xcd, 0x3e, 0xac, 0x1f, 0x8b, 0x3e,
  0x6b, 0x78, 0x2a, 0xbf, 0xc4, 0xd3, 0x2d, 0xbd, 0x83, 0x8c, 0x8a, 0xbd,
  0xbb, 0xdd, 0x4e, 0x3f, 0x89, 0x13, 0x3c, 0xbf, 0xdc, 0x64, 0x3b, 0xbf,
  0x52, 0xc5, 0x38, 0x3f, 0xaf, 0xba, 0x88, 0xbd, 0x27, 0x4f, 0x44, 0xbe,
  0x69, 0x15, 0xf8, 0xbd, 0x8b, 0xff, 0x89, 0x3e, 0x6e, 0xaa, 0xd8, 0x3d,
  0x4b, 0xa8, 0xdd, 0xbe, 0xc8, 0xb8, 0xfb, 0xbc, 0x1d, 0x05, 0xec, 0xbe,
  0x4a, 0x1f, 0x31, 0x3f, 0xe7, 0xb3, 0x08, 0x3d, 0x18, 0x8b, 0xc7, 0xbe,
  0x82, 0xbe, 0x04, 0x3f, 0xe3, 0x36, 0x24, 0xbf, 0xbf, 0xc3, 0x5d, 0xbe,
  0x20, 0xe8, 0xc5, 0x3e, 0xf0, 0xd6, 0x49, 0x3f, 0x54, 0x51, 0xef, 0xbe,
  0xab, 0x02, 0x43, 0x3c, 0x41, 0xd3, 0x08, 0x3f, 0x8d, 0xb6, 0xf4, 0x3e,
  0x37, 0xb7, 0x5c, 0x3e, 0xf9, 0x66, 0x99, 0x3e, 0xed, 0xa9, 0xb2, 0x3e,
  0x8c, 0x04, 0x16, 0x3f, 0x8c, 0xa9, 0xb8, 0x3e, 0xb3, 0x1e, 0x00, 0xbf,
  0x9d, 0xf9, 0xa9, 0x3e, 0xb6, 0x93, 0x24, 0xbd, 0x69, 0x7d, 0x7c, 0x3e,
  0x70, 0xab, 0x06, 0xbf, 0xb6, 0x2b, 0x9e, 0x3c, 0x0f, 0xa7, 0x9d, 0x3e,
  0xb1, 0x51, 0xd1, 0x3e, 0x46, 0x56, 0xeb, 0xbc, 0x46, 0x34, 0x00, 0xbe,
  0x4a, 0xe2, 0x7f, 0x3d, 0xe0, 0x62, 0x51, 0x3e, 0x1a, 0xec, 0x32, 0xbf,
  0x82, 0xdc, 0xb4, 0x3d, 0x54, 0x61, 0xfc, 0x3c, 0x71, 0x5c, 0x17, 0x3f,
  0xb0, 0x63, 0x97, 0x3e, 0x38, 0xeb, 0x08, 0xbf, 0x21, 0x7c, 0x01, 0x3f,
  0xd4, 0x0a, 0x5b, 0xbf, 0x1d, 0x59, 0xc2, 0xbd, 0x41, 0x50, 0xa6, 0xbd,
  0x66, 0x91, 0xed, 0x3e, 0xf8, 0x8e, 0xe6, 0xbe, 0x3a, 0xb2, 0x9e, 0x3e,
  0x16, 0xeb, 0xf0, 0x3e, 0xdd, 0x23, 0x10, 0x3f, 0x81, 0x74, 0x81, 0x3e,
  0x63, 0xad, 0xa6, 0x3e, 0xf8, 0xab, 0x9a, 0x3d, 0x66, 0x68, 0x86, 0x3f,
  0x53, 0xdb, 0xc5, 0x3e, 0x48, 0xf2, 0x9d, 0xbe, 0x75, 0xed, 0x22, 0x3f,
  0x3b, 0x44, 0x94, 0x3e, 0x2d, 0x8c, 0x6e, 0x3e, 0x06, 0x15, 0xfc, 0xbe,
  0xf3, 0x39, 0xde, 0x3e, 0xd8, 0xd9, 0x2c, 0x3f, 0x22, 0xf4, 0xb2, 0x3e,
  0x77, 0x79, 0xd0, 0x3d, 0x2b, 0x83, 0x4d, 0x3f, 0xa0, 0x8f, 0xb9, 0x3e,
  0xdb, 0xe5, 0x69, 0xbe, 0x43, 0xd4, 0x2a, 0xbf, 0x9a, 0xb5, 0xb4, 0xbe,
  0x8c, 0xe2, 0x27, 0x3d, 0xe6, 0x61, 0x52, 0x3e, 0xf4, 0x41, 0xdd, 0xbe,
  0x3d, 0xab, 0x45, 0x3e, 0xdf, 0xc1, 0x94, 0x3d, 0xa3, 0x77, 0x08, 0xc0,
  0x9f, 0x8a, 0x39, 0x3f, 0xae, 0x15, 0x2d, 0xbf, 0x74, 0xd9, 0x21, 0x3f,
  0x90, 0xc5, 0x2c, 0x3f, 0x5a, 0x46, 0x92, 0x3f, 0xd5, 0x6a, 0x2b, 0xbf,
  0x39, 0x06, 0x0c, 0xbf, 0x69, 0x4e, 0xc8, 0xbd, 0xca, 0x07, 0xfc, 0xbe,
  0x15, 0xb5, 0x0d, 0xbf, 0x40, 0x16, 0xf5, 0xbe, 0x59, 0xf4, 0x02, 0xbe,
  0x65, 0x1f, 0x09, 0x3e, 0xbd, 0x50, 0x90, 0xbe, 0x8c, 0x22, 0x63, 0x3c,
  0x83, 0x93, 0x9d, 0xbc, 0xa7, 0x1a, 0x58, 0xbe, 0x1e, 0x99, 0xb3, 0xbc,
  0x4a, 0xbf, 0x23, 0x3e, 0x9a, 0x3d, 0x09, 0xbf, 0x3f, 0x46, 0x10, 0x3f,
  0x8b, 0xd8, 0xd3, 0x3e, 0x51, 0xef, 0x09, 0x3e, 0x18, 0x9e, 0xa5, 0x3e,
  0x08, 0xe6, 0x2d, 0xbf, 0x16, 0x5c, 0xc1, 0x3e, 0x60, 0x8c, 0x3c, 0x3d,
  0xda, 0x30, 0x82, 0x3e, 0x8d, 0x66, 0x9c, 0x3e, 0xcf, 0x1e, 0x01, 0xbf,
  0x80, 0x44, 0x24, 0x3f, 0x5a, 0xeb, 0x92, 0xbf, 0x9f, 0x65, 0x79, 0x3e,
  0xc7, 0x4b, 0xb9, 0x3e, 0x8e, 0x23, 0x9b, 0x3f, 0x87, 0x52, 0x0c, 0xbe,
  0x23, 0x61, 0x3e, 0x3e, 0x92, 0xca, 0xf7, 0x3e, 0xf3, 0x14, 0xf9, 0x3e,
  0x50, 0xc9, 0xfa, 0x3e, 0xc4, 0x86, 0x27, 0x3f, 0x1e, 0x42, 0x76, 0x3e,
  0x17, 0x25, 0x75, 0x3d, 0x5b, 0x7c, 0xfd, 0x3e, 0x27, 0xf0, 0x14, 0xbf,
  0x86, 0xfe, 0x8a, 0x3d, 0xf7, 0xa4, 0xf6, 0xbe, 0x7f, 0x1b, 0xcd, 0x3e,
  0xb5, 0x26, 0xbf, 0xbe, 0x21, 0xcc, 0x0b, 0xbd, 0x21, 0x52, 0xbf, 0x3e,
  0x02, 0x76, 0x0c, 0x3e, 0x3e, 0x0d, 0x91, 0x3e, 0x30, 0x45, 0x25, 0xbe,
  0x44, 0x86, 0x26, 0x3d, 0x5b, 0x64, 0xb2, 0x3d, 0xd8, 0x3c, 0x2e, 0xbf,
  0xa6, 0xaa, 0x06, 0x3e, 0xeb, 0x40, 0x18, 0xbe, 0x60, 0x64, 0x96, 0x3e,
  0xd7, 0x69, 0x92, 0xbd, 0x0e, 0x19, 0x20, 0xbf, 0x4c, 0x3c, 0x81, 0x3e,
  0xcf, 0x48, 0x29, 0xbf, 0x3f, 0xbf, 0xa1, 0x3d, 0x39, 0x2c, 0xc6, 0x3e,
  0xef, 0x3f, 0xb8, 0x3e, 0xad, 0x73, 0x07, 0xbf, 0x76, 0x1d, 0xb7, 0x3d,
  0xbb, 0xa9, 0xfb, 0x3e, 0x5c, 0x68, 0x3a, 0x3f, 0x29, 0xd6, 0x9b, 0x3e,
  0x6b, 0x2b, 0x4b, 0x3f, 0xfd, 0xd4, 0xe5, 0x3c, 0xd6, 0x36, 0xab, 0x3e,
  0xb9, 0xb2, 0x4a, 0x3f, 0x01, 0x17, 0x68, 0xbe, 0xa0, 0x7c, 0xe9, 0x3e,
  0x96, 0x1c, 0x77, 0xbe, 0x68, 0x89, 0x41, 0x3f, 0xc5, 0x22, 0xb7, 0xbe,
  0x1b, 0x1a, 0x90, 0xbe, 0xfc, 0x82, 0x36, 0x3f, 0x1b, 0xa1, 0x4f, 0x3e,
  0xb9, 0x19, 0x31, 0x3e, 0x85, 0x89, 0xbc, 0x3e, 0x6a, 0x2e, 0xc0, 0x3e,
  0x34, 0xc5, 0x9f, 0x3e, 0xd2, 0x4c, 0xf4, 0xbe, 0xc6, 0x67, 0x97, 0xbb,
  0x34, 0xdc, 0x6b, 0xbe, 0xbd, 0x3c, 0xbe, 0x3e, 0x66, 0x4a, 0xae, 0x3e,
  0xe7, 0x32, 0xd0, 0xbe, 0x3c, 0x90, 0xd1, 0x3d, 0xc1, 0x84, 0x7b, 0xbf,
  0x38, 0xc5, 0xf3, 0x3d, 0xc9, 0x1a, 0x0b, 0x3e, 0x2b, 0xec, 0x66, 0x3f,
  0x32, 0xfc, 0x2d, 0xbd, 0xc0, 0xfd, 0x1d, 0x3d, 0x2c, 0xf4, 0xeb, 0x3e,
  0xe3, 0x33, 0xf3, 0x3e, 0x50, 0x08, 0x13, 0x3f, 0xe4, 0x7a, 0x00, 0x3e,
  0x45, 0x99, 0xc8, 0x3e, 0xf5, 0xb1, 0x0c, 0x3f, 0xdf, 0x10, 0x0f, 0x3f,
  0xcc, 0xa7, 0x92, 0xbe, 0x0f, 0xf4, 0x4b, 0x3e, 0xd7, 0xca, 0xc4, 0xbc,
  0x0b, 0x66, 0x4c, 0x3e, 0x9c, 0x0f, 0x08, 0xbf, 0x17, 0x91, 0x29, 0xbe,
  0x00, 0xe5, 0x76, 0x3e, 0xbb, 0x2f, 0x98, 0x3c, 0xca, 0x7f, 0x81, 0xbd,
  0x6a, 0xfd, 0xff, 0xff, 0x04, 0x00, 0x00, 0x00, 0x00, 0x02, 0x00, 0x00,
  0x44, 0xc4, 0x3e, 0x3e, 0x4a, 0x95, 0x95, 0xbf, 0xc4, 0x1a, 0xb8, 0x3e,
  0xae, 0xff, 0xbc, 0x3c, 0x0b, 0x43, 0x2a, 0x3f, 0x8a, 0x0a, 0x83, 0xbe,
  0x1a, 0x74, 0x2e, 0x3f, 0xbc, 0x44, 0x51, 0xbf, 0x97, 0xe7, 0xaa, 0xbe,
  0x80, 0x89, 0x93, 0x3e, 0xb3, 0x32, 0xcb, 0xbe, 0xfe, 0x93, 0x14, 0xbf,
  0x25, 0x34, 0x9a, 0xbf, 0x79, 0xb2, 0xee, 0x3e, 0xaa, 0xe0, 0x65, 0xbe,
  0x57, 0x33, 0xbb, 0x3d, 0x1f, 0x66, 0x94, 0x3e, 0x06, 0xe6, 0x40, 0xc0,
  0xa2, 0xca, 0x0f, 0x3f, 0xb9, 0xaa, 0x02, 0x3f, 0xeb, 0x2f, 0x0d, 0x3f,
  0x62, 0x3b, 0x25, 0x3f, 0x7d, 0x8d, 0xaa, 0x3d, 0xe0, 0x3c, 0x28, 0xc0,
  0xc3, 0x49, 0xb0, 0x3e, 0x34, 0x80, 0x85, 0x3f, 0x99, 0xbf, 0x7f, 0x3e,
  0xd0, 0xf1, 0x09, 0x3e, 0x78, 0xc6, 0xc9, 0xbf, 0x27, 0xf3, 0x4d, 0x3f,
  0x51, 0xbb, 0x36, 0x3f, 0xd9, 0x6b, 0xb9, 0x3c, 0x70, 0x14, 0x44, 0xbe,
  0x51, 0x13, 0x8f, 0xbe, 0xed, 0x2a, 0x6a, 0xbe, 0x50, 0x75, 0xa9, 0xbe,
  0x5e, 0x8a, 0x56, 0x3e, 0x39, 0x2b, 0x73, 0x3e, 0x85, 0x81, 0xe2, 0xbe,
  0x9b, 0x82, 0x55, 0xbe, 0x57, 0x8a, 0x0f, 0xbc, 0x39, 0x82, 0x31, 0x3e,
  0xa4, 0x89, 0xe8, 0xbe, 0xc7, 0xd9, 0x7c, 0xbe, 0x97, 0xec, 0x78, 0xbd,
  0xda, 0xb5, 0x09, 0xbe, 0x0b, 0xa8, 0x0a, 0x3e, 0x62, 0x5a, 0x62, 0x3e,
  0x7b, 0x1a, 0x86, 0x3c, 0xe1, 0x68, 0x14, 0x3e, 0xb1, 0xa2, 0x98, 0xbe,
  0x97, 0xd2, 0xd5, 0xbe, 0xad, 0x78, 0xab, 0x3e, 0x0d, 0x8f, 0x8d, 0xbe,
  0xb9, 0xef, 0x73, 0xbe, 0xf4, 0xbc, 0x90, 0x3e, 0x6e, 0x77, 0x82, 0xbe,
  0xdc, 0x89, 0x14, 0xbd, 0x1e, 0x2f, 0x19, 0xbe, 0x4b, 0xb8, 0xb8, 0xbe,
  0x19, 0x85, 0x32, 0xbe, 0x8e, 0x94, 0xd2, 0xbe, 0x57, 0x6d, 0x77, 0xbe,
  0xa6, 0x90, 0x99, 0xbe, 0xb9, 0x01, 0x48, 0x3f, 0xf6, 0xea, 0x18, 0xc0,
  0x46, 0x4a, 0x6c, 0x3e, 0x61, 0x5b, 0x43, 0x3f, 0xc1, 0xeb, 0x1b, 0x3f,
  0x99, 0xb8, 0x33, 0x3f, 0x03, 0x2c, 0x25, 0x3f, 0xef, 0xe6, 0xfa, 0xbf,
  0x72, 0x1b, 0xf9, 0x3e, 0x3c, 0x1a, 0xb2, 0x3f, 0xc6, 0xee, 0x8b, 0x3e,
  0x88, 0x74, 0x07, 0xbe, 0x84, 0x12, 0x99, 0xbf, 0x4f, 0x3a, 0x29, 0x3f,
  0xa3, 0xe0, 0x0e, 0x3f, 0x2d, 0x21, 0x34, 0x3f, 0x5a, 0xd3, 0x01, 0xbe,
  0x02, 0x16, 0xea, 0xbd, 0x63, 0xca, 0x76, 0x3e, 0xca, 0x82, 0xa9, 0xbc,
  0x12, 0xec, 0xbb, 0xbe, 0x2e, 0xef, 0xb8, 0x3e, 0x76, 0xdf, 0x0d, 0xbf,
  0x28, 0x16, 0xf6, 0xbd, 0xfc, 0xa3, 0xb3, 0x3d, 0xb4, 0x60, 0xd1, 0x3e,
  0x00, 0x1f, 0x36, 0x3d, 0x50, 0x74, 0x9d, 0xbe, 0x9c, 0x39, 0x02, 0xbf,
  0xe1, 0x57, 0xa7, 0xbe, 0xbf, 0x9f, 0x59, 0xbd, 0xff, 0xa3, 0xc7, 0xbb,
  0xfd, 0x91, 0xa3, 0x3e, 0x5e, 0xf0, 0x6f, 0x3c, 0xff, 0x23, 0x39, 0x3e,
  0xb8, 0x9e, 0x14, 0x3e, 0x94, 0xa7, 0x6d, 0xbc, 0x5b, 0x7e, 0x2b, 0xbe,
  0xef, 0x7a, 0x06, 0xbf, 0xcd, 0xdd, 0xd8, 0xbe, 0x6c, 0x16, 0x1c, 0xbe,
  0x24, 0x91, 0xa3, 0x3e, 0x85, 0x8b, 0xdc, 0xbe, 0xa9, 0x54, 0xaf, 0xbe,
  0x8f, 0x86, 0xae, 0x3e, 0x72, 0xf2, 0x04, 0xbf, 0x42, 0xc4, 0x94, 0x3d,
  0xd6, 0xe5, 0xcd, 0x3e, 0x9e, 0x88, 0x02, 0x3f, 0x12, 0xa8, 0x24, 0xc0,
  0xa9, 0x6d, 0x03, 0x3f, 0x47, 0x86, 0xa8, 0x3e, 0x03, 0x7d, 0xc9, 0x3e,
  0x00, 0x71, 0xd5, 0xbd, 0x87, 0x00, 0x28, 0x3f, 0xe6, 0x17, 0x1a, 0xc0,
  0x96, 0xc2, 0x20, 0x3f, 0x19, 0x19, 0x10, 0x3f, 0x30, 0x8d, 0x2f, 0x3f,
  0x47, 0x06, 0x56, 0x3f, 0x36, 0x79, 0xa9, 0xbf, 0xfb, 0x57, 0xbe, 0x3e,
  0xbd, 0xee, 0x14, 0x3e, 0x2f, 0x21, 0xca, 0x3e, 0x76, 0xff, 0xff, 0xff,
  0x04, 0x00, 0x00, 0x00, 0x20, 0x00, 0x00, 0x00, 0xa9, 0xe4, 0x13, 0xc0,
  0x4f, 0x82, 0x6d, 0x3f, 0x2d, 0x14, 0xe1, 0xbe, 0x61, 0xe9, 0x0f, 0xbf,
  0x1a, 0x35, 0x4f, 0x3f, 0xab, 0xf1, 0x1d, 0xbf, 0xdd, 0xdb, 0x80, 0xbe,
  0x96, 0xa4, 0x98, 0x3f, 0xa2, 0xff, 0xff, 0xff, 0x04, 0x00, 0x00, 0x00,
  0x04, 0x00, 0x00, 0x00, 0x52, 0xfd, 0x0f, 0x3e, 0xb2, 0xff, 0xff, 0xff,
  0x04, 0x00, 0x00, 0x00, 0x40, 0x00, 0x00, 0x00, 0x19, 0xd2, 0x9e, 0x3c,
  0x40, 0xe5, 0x71, 0x3e, 0xd1, 0xa7, 0xb5, 0xbd, 0x6d, 0x5b, 0x52, 0x3d,
  0x2b, 0x3d, 0x53, 0xbe, 0x25, 0x3d, 0xad, 0x3d, 0x63, 0x00, 0x8e, 0xbe,
  0xcd, 0x03, 0x88, 0x3e, 0xea, 0x1c, 0xf7, 0x3d, 0xb5, 0xf3, 0x9e, 0xbe,
  0x09, 0x37, 0x4a, 0x3e, 0x30, 0xf6, 0x38, 0x3e, 0xf3, 0xde, 0x26, 0x3d,
  0xad, 0x8f, 0xb4, 0xbd, 0x47, 0xac, 0x0e, 0x3e, 0x5f, 0x12, 0xbb, 0x3c,
  0x00, 0x00, 0x06, 0x00, 0x08, 0x00, 0x04, 0x00, 0x06, 0x00, 0x00, 0x00,
  0x04, 0x00, 0x00, 0x00, 0x20, 0x00, 0x00, 0x00, 0xa6, 0xdb, 0xc0, 0xbe,
  0xc7, 0x1e, 0xe6, 0x3d, 0x94, 0x43, 0xa3, 0xbc, 0x6a, 0xc9, 0xc1, 0xbc,
  0xea, 0x48, 0xed, 0x3d, 0x96, 0x90, 0x8c, 0xbd, 0x57, 0xab, 0x5a, 0xbd,
  0x83, 0xfc, 0x0a, 0x3e, 0xc4, 0xf9, 0xff, 0xff, 0xc8, 0xf9, 0xff, 0xff,
  0x0f, 0x00, 0x00, 0x00, 0x4d, 0x4c, 0x49, 0x52, 0x20, 0x43, 0x6f, 0x6e,
  0x76, 0x65, 0x72, 0x74, 0x65, 0x64, 0x2e, 0x00, 0x01, 0x00, 0x00, 0x00,
  0x14, 0x00, 0x00, 0x00, 0x00, 0x00, 0x0e, 0x00, 0x18, 0x00, 0x14, 0x00,
  0x10, 0x00, 0x0c, 0x00, 0x08, 0x00, 0x04, 0x00, 0x0e, 0x00, 0x00, 0x00,
  0x14, 0x00, 0x00, 0x00, 0x1c, 0x00, 0x00, 0x00, 0x20, 0x01, 0x00, 0x00,
  0x24, 0x01, 0x00, 0x00, 0x28, 0x01, 0x00, 0x00, 0x04, 0x00, 0x00, 0x00,
  0x6d, 0x61, 0x69, 0x6e, 0x00, 0x00, 0x00, 0x00, 0x04, 0x00, 0x00, 0x00,
  0xc8, 0x00, 0x00, 0x00, 0x80, 0x00, 0x00, 0x00, 0x38, 0x00, 0x00, 0x00,
  0x04, 0x00, 0x00, 0x00, 0x9a, 0xff, 0xff, 0xff, 0x10, 0x00, 0x00, 0x00,
  0x00, 0x00, 0x00, 0x08, 0x0c, 0x00, 0x00, 0x00, 0x10, 0x00, 0x00, 0x00,
  0x44, 0xfa, 0xff, 0xff, 0x01, 0x00, 0x00, 0x00, 0x0c, 0x00, 0x00, 0x00,
  0x03, 0x00, 0x00, 0x00, 0x0b, 0x00, 0x00, 0x00, 0x04, 0x00, 0x00, 0x00,
  0x03, 0x00, 0x00, 0x00, 0xca, 0xff, 0xff, 0xff, 0x10, 0x00, 0x00, 0x00,
  0x00, 0x00, 0x00, 0x08, 0x10, 0x00, 0x00, 0x00, 0x14, 0x00, 0x00, 0x00,
  0x76, 0xff, 0xff, 0xff, 0x00, 0x00, 0x00, 0x01, 0x01, 0x00, 0x00, 0x00,
  0x0b, 0x00, 0x00, 0x00, 0x03, 0x00, 0x00, 0x00, 0x0a, 0x00, 0x00, 0x00,
  0x05, 0x00, 0x00, 0x00, 0x01, 0x00, 0x00, 0x00, 0x00, 0x00, 0x0e, 0x00,
  0x14, 0x00, 0x00, 0x00, 0x10, 0x00, 0x0c, 0x00, 0x0b, 0x00, 0x04, 0x00,
  0x0e, 0x00, 0x00, 0x00, 0x10, 0x00, 0x00, 0x00, 0x00, 0x00, 0x00, 0x08,
  0x10, 0x00, 0x00, 0x00, 0x14, 0x00, 0x00, 0x00, 0xba, 0xff, 0xff, 0xff,
  0x00, 0x00, 0x00, 0x01, 0x01, 0x00, 0x00, 0x00, 0x0a, 0x00, 0x00, 0x00,
  0x03, 0x00, 0x00, 0x00, 0x09, 0x00, 0x00, 0x00, 0x06, 0x00, 0x00, 0x00,
  0x02, 0x00, 0x00, 0x00, 0x00, 0x00, 0x0e, 0x00, 0x16, 0x00, 0x00, 0x00,
  0x10, 0x00, 0x0c, 0x00, 0x0b, 0x00, 0x04, 0x00, 0x0e, 0x00, 0x00, 0x00,
  0x18, 0x00, 0x00, 0x00, 0x00, 0x00, 0x00, 0x08, 0x18, 0x00, 0x00, 0x00,
  0x1c, 0x00, 0x00, 0x00, 0x00, 0x00, 0x06, 0x00, 0x08, 0x00, 0x07, 0x00,
  0x06, 0x00, 0x00, 0x00, 0x00, 0x00, 0x00, 0x01, 0x01, 0x00, 0x00, 0x00,
  0x09, 0x00, 0x00, 0x00, 0x03, 0x00, 0x00, 0x00, 0x00, 0x00, 0x00, 0x00,
  0x07, 0x00, 0x00, 0x00, 0x08, 0x00, 0x00, 0x00, 0x01, 0x00, 0x00, 0x00,
  0x0c, 0x00, 0x00, 0x00, 0x01, 0x00, 0x00, 0x00, 0x00, 0x00, 0x00, 0x00,
  0x0d, 0x00, 0x00, 0x00, 0xa0, 0x04, 0x00, 0x00, 0x4c, 0x04, 0x00, 0x00,
  0xf8, 0x03, 0x00, 0x00, 0xbc, 0x03, 0x00, 0x00, 0x7c, 0x03, 0x00, 0x00,
  0x3c, 0x03, 0x00, 0x00, 0xfc, 0x02, 0x00, 0x00, 0xac, 0x02, 0x00, 0x00,
  0x40, 0x02, 0x00, 0x00, 0xa0, 0x01, 0x00, 0x00, 0x00, 0x01, 0x00, 0x00,
  0x60, 0x00, 0x00, 0x00, 0x04, 0x00, 0x00, 0x00, 0xaa, 0xfb, 0xff, 0xff,
  0x00, 0x00, 0x00, 0x01, 0x14, 0x00, 0x00, 0x00, 0x1c, 0x00, 0x00, 0x00,
  0x1c, 0x00, 0x00, 0x00, 0x0d, 0x00, 0x00, 0x00, 0x34, 0x00, 0x00, 0x00,
  0x02, 0x00, 0x00, 0x00, 0xff, 0xff, 0xff, 0xff, 0x01, 0x00, 0x00, 0x00,
  0x94, 0xfb, 0xff, 0xff, 0x1b, 0x00, 0x00, 0x00, 0x53, 0x74, 0x61, 0x74,
  0x65, 0x66, 0x75, 0x6c, 0x50, 0x61, 0x72, 0x74, 0x69, 0x74, 0x69, 0x6f,
  0x6e, 0x65, 0x64, 0x43, 0x61, 0x6c, 0x6c, 0x5f, 0x31, 0x3a, 0x30, 0x00,
  0x02, 0x00, 0x00, 0x00, 0x01, 0x00, 0x00, 0x00, 0x01, 0x00, 0x00, 0x00,
  0x02, 0xfc, 0xff, 0xff, 0x00, 0x00, 0x00, 0x01, 0x14, 0x00, 0x00, 0x00,
  0x1c, 0x00, 0x00, 0x00, 0x1c, 0x00, 0x00, 0x00, 0x0c, 0x00, 0x00, 0x00,
  0x78, 0x00, 0x00, 0x00, 0x02, 0x00, 0x00, 0x00, 0xff, 0xff, 0xff, 0xff,
  0x08, 0x00, 0x00, 0x00, 0xec, 0xfb, 0xff, 0xff, 0x5e, 0x00, 0x00, 0x00,
  0x73, 0x65, 0x71, 0x75, 0x65, 0x6e, 0x74, 0x69, 0x61, 0x6c, 0x5f, 0x31,
  0x5f, 0x31, 0x2f, 0x64, 0x65, 0x6e, 0x73, 0x65, 0x5f, 0x35, 0x5f, 0x31,
  0x2f, 0x4d, 0x61, 0x74, 0x4d, 0x75, 0x6c, 0x3b, 0x73, 0x65, 0x71, 0x75,
  0x65, 0x6e, 0x74, 0x69, 0x61, 0x6c, 0x5f, 0x31, 0x5f, 0x31, 0x2f, 0x64,
  0x65, 0x6e, 0x73, 0x65, 0x5f, 0x35, 0x5f, 0x31, 0x2f, 0x52, 0x65, 0x6c,
  0x75, 0x3b, 0x73, 0x65, 0x71, 0x75, 0x65, 0x6e, 0x74, 0x69, 0x61, 0x6c,
  0x5f, 0x31, 0x5f, 0x31, 0x2f, 0x64, 0x65, 0x6e, 0x73, 0x65, 0x5f, 0x35,
  0x5f, 0x31, 0x2f, 0x42, 0x69, 0x61, 0x73, 0x41, 0x64, 0x64, 0x00, 0x00,
  0x02, 0x00, 0x00, 0x00, 0x01, 0x00, 0x00, 0x00, 0x08, 0x00, 0x00, 0x00,
  0x9e, 0xfc, 0xff, 0xff, 0x00, 0x00, 0x00, 0x01, 0x14, 0x00, 0x00, 0x00,
  0x1c, 0x00, 0x00, 0x00, 0x1c, 0x00, 0x00, 0x00, 0x0b, 0x00, 0x00, 0x00,
  0x78, 0x00, 0x00, 0x00, 0x02, 0x00, 0x00, 0x00, 0xff, 0xff, 0xff, 0xff,
  0x10, 0x00, 0x00, 0x00, 0x88, 0xfc, 0xff, 0xff, 0x5e, 0x00, 0x00, 0x00,
  0x73, 0x65, 0x71, 0x75, 0x65, 0x6e, 0x74, 0x69, 0x61, 0x6c, 0x5f, 0x31,
  0x5f, 0x31, 0x2f, 0x64, 0x65, 0x6e, 0x73, 0x65, 0x5f, 0x34, 0x5f, 0x31,
  0x2f, 0x4d, 0x61, 0x74, 0x4d, 0x75, 0x6c, 0x3b, 0x73, 0x65, 0x71, 0x75,
  0x65, 0x6e, 0x74, 0x69, 0x61, 0x6c, 0x5f, 0x31, 0x5f, 0x31, 0x2f, 0x64,
  0x65, 0x6e, 0x73, 0x65, 0x5f, 0x34, 0x5f, 0x31, 0x2f, 0x52, 0x65, 0x6c,
  0x75, 0x3b, 0x73, 0x65, 0x71, 0x75, 0x65, 0x6e, 0x74, 0x69, 0x61, 0x6c,
  0x5f, 0x31, 0x5f, 0x31, 0x2f, 0x64, 0x65, 0x6e, 0x73, 0x65, 0x5f, 0x34,
  0x5f, 0x31, 0x2f, 0x42, 0x69, 0x61, 0x73, 0x41, 0x64, 0x64, 0x00, 0x00,
  0x02, 0x00, 0x00, 0x00, 0x01, 0x00, 0x00, 0x00, 0x10, 0x00, 0x00, 0x00,
  0x3a, 0xfd, 0xff, 0xff, 0x00, 0x00, 0x00, 0x01, 0x14, 0x00, 0x00, 0x00,
  0x1c, 0x00, 0x00, 0x00, 0x1c, 0x00, 0x00, 0x00, 0x0a, 0x00, 0x00, 0x00,
  0x78, 0x00, 0x00, 0x00, 0x02, 0x00, 0x00, 0x00, 0xff, 0xff, 0xff, 0xff,
  0x20, 0x00, 0x00, 0x00, 0x24, 0xfd, 0xff, 0xff, 0x5e, 0x00, 0x00, 0x00,
  0x73, 0x65, 0x71, 0x75, 0x65, 0x6e, 0x74, 0x69, 0x61, 0x6c, 0x5f, 0x31,
  0x5f, 0x31, 0x2f, 0x64, 0x65, 0x6e, 0x73, 0x65, 0x5f, 0x33, 0x5f, 0x31,
  0x2f, 0x4d, 0x61, 0x74, 0x4d, 0x75, 0x6c, 0x3b, 0x73, 0x65, 0x71, 0x75,
  0x65, 0x6e, 0x74, 0x69, 0x61, 0x6c, 0x5f, 0x31, 0x5f, 0x31, 0x2f, 0x64,
  0x65, 0x6e, 0x73, 0x65, 0x5f, 0x33, 0x5f, 0x31, 0x2f, 0x52, 0x65, 0x6c,
  0x75, 0x3b, 0x73, 0x65, 0x71, 0x75, 0x65, 0x6e, 0x74, 0x69, 0x61, 0x6c,
  0x5f, 0x31, 0x5f, 0x31, 0x2f, 0x64, 0x65, 0x6e, 0x73, 0x65, 0x5f, 0x33,
  0x5f, 0x31, 0x2f, 0x42, 0x69, 0x61, 0x73, 0x41, 0x64, 0x64, 0x00, 0x00,
  0x02, 0x00, 0x00, 0x00, 0x01, 0x00, 0x00, 0x00, 0x20, 0x00, 0x00, 0x00,
  0x26, 0xfe, 0xff, 0xff, 0x00, 0x00, 0x00, 0x01, 0x10, 0x00, 0x00, 0x00,
  0x10, 0x00, 0x00, 0x00, 0x09, 0x00, 0x00, 0x00, 0x4c, 0x00, 0x00, 0x00,
  0xb0, 0xfd, 0xff, 0xff, 0x3e, 0x00, 0x00, 0x00, 0x73, 0x65, 0x71, 0x75,
  0x65, 0x6e, 0x74, 0x69, 0x61, 0x6c, 0x5f, 0x31, 0x5f, 0x31, 0x2f, 0x64,
  0x65, 0x6e, 0x73, 0x65, 0x5f, 0x33, 0x5f, 0x31, 0x2f, 0x52, 0x65, 0x6c,
  0x75, 0x3b, 0x73, 0x65, 0x71, 0x75, 0x65, 0x6e, 0x74, 0x69, 0x61, 0x6c,
  0x5f, 0x31, 0x5f, 0x31, 0x2f, 0x64, 0x65, 0x6e, 0x73, 0x65, 0x5f, 0x33,
  0x5f, 0x31, 0x2f, 0x42, 0x69, 0x61, 0x73, 0x41, 0x64, 0x64, 0x00, 0x00,
  0x01, 0x00, 0x00, 0x00, 0x20, 0x00, 0x00, 0x00, 0x8e, 0xfe, 0xff, 0xff,
  0x00, 0x00, 0x00, 0x01, 0x10, 0x00, 0x00, 0x00, 0x10, 0x00, 0x00, 0x00,
  0x08, 0x00, 0x00, 0x00, 0x2c, 0x00, 0x00, 0x00, 0x18, 0xfe, 0xff, 0xff,
  0x1f, 0x00, 0x00, 0x00, 0x73, 0x65, 0x71, 0x75, 0x65, 0x6e, 0x74, 0x69,
  0x61, 0x6c, 0x5f, 0x31, 0x5f, 0x31, 0x2f, 0x64, 0x65, 0x6e, 0x73, 0x65,
  0x5f, 0x33, 0x5f, 0x31, 0x2f, 0x4d, 0x61, 0x74, 0x4d, 0x75, 0x6c, 0x00,
  0x02, 0x00, 0x00, 0x00, 0x20, 0x00, 0x00, 0x00, 0x0f, 0x00, 0x00, 0x00,
  0xda, 0xfe, 0xff, 0xff, 0x00, 0x00, 0x00, 0x01, 0x10, 0x00, 0x00, 0x00,
  0x10, 0x00, 0x00, 0x00, 0x07, 0x00, 0x00, 0x00, 0x1c, 0x00, 0x00, 0x00,
  0x64, 0xfe, 0xff, 0xff, 0x0f, 0x00, 0x00, 0x00, 0x61, 0x72, 0x69, 0x74,
  0x68, 0x2e, 0x63, 0x6f, 0x6e, 0x73, 0x74, 0x61, 0x6e, 0x74, 0x35, 0x00,
  0x02, 0x00, 0x00, 0x00, 0x10, 0x00, 0x00, 0x00, 0x20, 0x00, 0x00, 0x00,
  0x16, 0xff, 0xff, 0xff, 0x00, 0x00, 0x00, 0x01, 0x10, 0x00, 0x00, 0x00,
  0x10, 0x00, 0x00, 0x00, 0x06, 0x00, 0x00, 0x00, 0x1c, 0x00, 0x00, 0x00,
  0xa0, 0xfe, 0xff, 0xff, 0x0f, 0x00, 0x00, 0x00, 0x61, 0x72, 0x69, 0x74,
  0x68, 0x2e, 0x63, 0x6f, 0x6e, 0x73, 0x74, 0x61, 0x6e, 0x74, 0x34, 0x00,
  0x02, 0x00, 0x00, 0x00, 0x08, 0x00, 0x00, 0x00, 0x10, 0x00, 0x00, 0x00,
  0x52, 0xff, 0xff, 0xff, 0x00, 0x00, 0x00, 0x01, 0x10, 0x00, 0x00, 0x00,
  0x10, 0x00, 0x00, 0x00, 0x05, 0x00, 0x00, 0x00, 0x1c, 0x00, 0x00, 0x00,
  0xdc, 0xfe, 0xff, 0xff, 0x0f, 0x00, 0x00, 0x00, 0x61, 0x72, 0x69, 0x74,
  0x68, 0x2e, 0x63, 0x6f, 0x6e, 0x73, 0x74, 0x61, 0x6e, 0x74, 0x33, 0x00,
  0x02, 0x00, 0x00, 0x00, 0x01, 0x00, 0x00, 0x00, 0x08, 0x00, 0x00, 0x00,
  0x8e, 0xff, 0xff, 0xff, 0x00, 0x00, 0x00, 0x01, 0x10, 0x00, 0x00, 0x00,
  0x10, 0x00, 0x00, 0x00, 0x04, 0x00, 0x00, 0x00, 0x1c, 0x00, 0x00, 0x00,
  0x18, 0xff, 0xff, 0xff, 0x0f, 0x00, 0x00, 0x00, 0x61, 0x72, 0x69, 0x74,
  0x68, 0x2e, 0x63, 0x6f, 0x6e, 0x73, 0x74, 0x61, 0x6e, 0x74, 0x32, 0x00,
  0x01, 0x00, 0x00, 0x00, 0x01, 0x00, 0x00, 0x00, 0xc6, 0xff, 0xff, 0xff,
  0x00, 0x00, 0x00, 0x01, 0x10, 0x00, 0x00, 0x00, 0x10, 0x00, 0x00, 0x00,
  0x03, 0x00, 0x00, 0x00, 0x1c, 0x00, 0x00, 0x00, 0x50, 0xff, 0xff, 0xff,
  0x0f, 0x00, 0x00, 0x00, 0x61, 0x72, 0x69, 0x74, 0x68, 0x2e, 0x63, 0x6f,
  0x6e, 0x73, 0x74, 0x61, 0x6e, 0x74, 0x31, 0x00, 0x01, 0x00, 0x00, 0x00,
  0x10, 0x00, 0x00, 0x00, 0x00, 0x00, 0x16, 0x00, 0x18, 0x00, 0x14, 0x00,
  0x00, 0x00, 0x10, 0x00, 0x0c, 0x00, 0x08, 0x00, 0x00, 0x00, 0x00, 0x00,
  0x00, 0x00, 0x07, 0x00, 0x16, 0x00, 0x00, 0x00, 0x00, 0x00, 0x00, 0x01,
  0x10, 0x00, 0x00, 0x00, 0x10, 0x00, 0x00, 0x00, 0x02, 0x00, 0x00, 0x00,
  0x1c, 0x00, 0x00, 0x00, 0xa0, 0xff, 0xff, 0xff, 0x0e, 0x00, 0x00, 0x00,
  0x61, 0x72, 0x69, 0x74, 0x68, 0x2e, 0x63, 0x6f, 0x6e, 0x73, 0x74, 0x61,
  0x6e, 0x74, 0x00, 0x00, 0x01, 0x00, 0x00, 0x00, 0x08, 0x00, 0x00, 0x00,
  0x00, 0x00, 0x16, 0x00, 0x1c, 0x00, 0x18, 0x00, 0x00, 0x00, 0x14, 0x00,
  0x10, 0x00, 0x0c, 0x00, 0x00, 0x00, 0x00, 0x00, 0x08, 0x00, 0x07, 0x00,
  0x16, 0x00, 0x00, 0x00, 0x00, 0x00, 0x00, 0x01, 0x14, 0x00, 0x00, 0x00,
  0x20, 0x00, 0x00, 0x00, 0x20, 0x00, 0x00, 0x00, 0x01, 0x00, 0x00, 0x00,
  0x3c, 0x00, 0x00, 0x00, 0x02, 0x00, 0x00, 0x00, 0xff, 0xff, 0xff, 0xff,
  0x0f, 0x00, 0x00, 0x00, 0x04, 0x00, 0x04, 0x00, 0x04, 0x00, 0x00, 0x00,
  0x1f, 0x00, 0x00, 0x00, 0x73, 0x65, 0x72, 0x76, 0x69, 0x6e, 0x67, 0x5f,
  0x64, 0x65, 0x66, 0x61, 0x75, 0x6c, 0x74, 0x5f, 0x69, 0x6e, 0x70, 0x75,
  0x74, 0x5f, 0x6c, 0x61, 0x79, 0x65, 0x72, 0x5f, 0x31, 0x3a, 0x30, 0x00,
  0x02, 0x00, 0x00, 0x00, 0x01, 0x00, 0x00, 0x00, 0x0f, 0x00, 0x00, 0x00,
  0x01, 0x00, 0x00, 0x00, 0x10, 0x00, 0x00, 0x00, 0x0c, 0x00, 0x0c, 0x00,
  0x0b, 0x00, 0x00, 0x00, 0x00, 0x00, 0x04, 0x00, 0x0c, 0x00, 0x00, 0x00,
  0x09, 0x00, 0x00, 0x00, 0x00, 0x00, 0x00, 0x09
};
unsigned int crop_yield_model_tflite_len = 7028;
